unsigned char converted_model_tflite[] = {
  0x20, 0x00, 0x00, 0x00, 0x54, 0x46, 0x4c, 0x33, 0x00, 0x00, 0x00, 0x00,
  0x14, 0x00, 0x20, 0x00, 0x1c, 0x00, 0x18, 0x00, 0x14, 0x00, 0x10, 0x00,
  0x0c, 0x00, 0x00, 0x00, 0x08, 0x00, 0x04, 0x00, 0x14, 0x00, 0x00, 0x00,
  0x1c, 0x00, 0x00, 0x00, 0x8c, 0x00, 0x00, 0x00, 0xe4, 0x00, 0x00, 0x00,
  0x90, 0x14, 0x00, 0x00, 0xa0, 0x14, 0x00, 0x00, 0x64, 0x1c, 0x00, 0x00,
  0x03, 0x00, 0x00, 0x00, 0x01, 0x00, 0x00, 0x00, 0x04, 0x00, 0x00, 0x00,
  0x1e, 0xeb, 0xff, 0xff, 0x0c, 0x00, 0x00, 0x00, 0x1c, 0x00, 0x00, 0x00,
  0x3c, 0x00, 0x00, 0x00, 0x0f, 0x00, 0x00, 0x00, 0x73, 0x65, 0x72, 0x76,
  0x69, 0x6e, 0x67, 0x5f, 0x64, 0x65, 0x66, 0x61, 0x75, 0x6c, 0x74, 0x00,
  0x01, 0x00, 0x00, 0x00, 0x04, 0x00, 0x00, 0x00, 0x90, 0xff, 0xff, 0xff,
  0x0b, 0x00, 0x00, 0x00, 0x04, 0x00, 0x00, 0x00, 0x08, 0x00, 0x00, 0x00,
  0x64, 0x65, 0x6e, 0x73, 0x65, 0x5f, 0x32, 0x30, 0x00, 0x00, 0x00, 0x00,
  0x01, 0x00, 0x00, 0x00, 0x04, 0x00, 0x00, 0x00, 0xf6, 0xeb, 0xff, 0xff,
  0x04, 0x00, 0x00, 0x00, 0x0e, 0x00, 0x00, 0x00, 0x64, 0x65, 0x6e, 0x73,
  0x65, 0x5f, 0x31, 0x38, 0x5f, 0x69, 0x6e, 0x70, 0x75, 0x74, 0x00, 0x00,
  0x02, 0x00, 0x00, 0x00, 0x34, 0x00, 0x00, 0x00, 0x04, 0x00, 0x00, 0x00,
  0xdc, 0xff, 0xff, 0xff, 0x0e, 0x00, 0x00, 0x00, 0x04, 0x00, 0x00, 0x00,
  0x13, 0x00, 0x00, 0x00, 0x43, 0x4f, 0x4e, 0x56, 0x45, 0x52, 0x53, 0x49,
  0x4f, 0x4e, 0x5f, 0x4d, 0x45, 0x54, 0x41, 0x44, 0x41, 0x54, 0x41, 0x00,
  0x08, 0x00, 0x0c, 0x00, 0x08, 0x00, 0x04, 0x00, 0x08, 0x00, 0x00, 0x00,
  0x0d, 0x00, 0x00, 0x00, 0x04, 0x00, 0x00, 0x00, 0x13, 0x00, 0x00, 0x00,
  0x6d, 0x69, 0x6e, 0x5f, 0x72, 0x75, 0x6e, 0x74, 0x69, 0x6d, 0x65, 0x5f,
  0x76, 0x65, 0x72, 0x73, 0x69, 0x6f, 0x6e, 0x00, 0x0f, 0x00, 0x00, 0x00,
  0xa8, 0x13, 0x00, 0x00, 0xa0, 0x13, 0x00, 0x00, 0x8c, 0x13, 0x00, 0x00,
  0x34, 0x13, 0x00, 0x00, 0x24, 0x12, 0x00, 0x00, 0x14, 0x02, 0x00, 0x00,
  0x04, 0x01, 0x00, 0x00, 0xb4, 0x00, 0x00, 0x00, 0xac, 0x00, 0x00, 0x00,
  0xa4, 0x00, 0x00, 0x00, 0x9c, 0x00, 0x00, 0x00, 0x94, 0x00, 0x00, 0x00,
  0x8c, 0x00, 0x00, 0x00, 0x6c, 0x00, 0x00, 0x00, 0x04, 0x00, 0x00, 0x00,
  0xae, 0xec, 0xff, 0xff, 0x04, 0x00, 0x00, 0x00, 0x58, 0x00, 0x00, 0x00,
  0x0c, 0x00, 0x00, 0x00, 0x08, 0x00, 0x0e, 0x00, 0x08, 0x00, 0x04, 0x00,
  0x08, 0x00, 0x00, 0x00, 0x10, 0x00, 0x00, 0x00, 0x28, 0x00, 0x00, 0x00,
  0x00, 0x00, 0x06, 0x00, 0x08, 0x00, 0x04, 0x00, 0x06, 0x00, 0x00, 0x00,
  0x04, 0x00, 0x00, 0x00, 0x01, 0x00, 0x00, 0x00, 0xeb, 0x03, 0x00, 0x00,
  0x00, 0x00, 0x0a, 0x00, 0x10, 0x00, 0x0c, 0x00, 0x08, 0x00, 0x04, 0x00,
  0x0a, 0x00, 0x00, 0x00, 0x02, 0x00, 0x00, 0x00, 0x02, 0x00, 0x00, 0x00,
  0x04, 0x00, 0x00, 0x00, 0x06, 0x00, 0x00, 0x00, 0x32, 0x2e, 0x31, 0x32,
  0x2e, 0x30, 0x00, 0x00, 0x12, 0xed, 0xff, 0xff, 0x04, 0x00, 0x00, 0x00,
  0x10, 0x00, 0x00, 0x00, 0x31, 0x2e, 0x31, 0x34, 0x2e, 0x30, 0x00, 0x00,
  0x00, 0x00, 0x00, 0x00, 0x00, 0x00, 0x00, 0x00, 0x70, 0xe5, 0xff, 0xff,
  0x74, 0xe5, 0xff, 0xff, 0x78, 0xe5, 0xff, 0xff, 0x7c, 0xe5, 0xff, 0xff,
  0x80, 0xe5, 0xff, 0xff, 0x42, 0xed, 0xff, 0xff, 0x04, 0x00, 0x00, 0x00,
  0x40, 0x00, 0x00, 0x00, 0x46, 0x97, 0x7f, 0xbb, 0x27, 0xb9, 0xb8, 0xaa,
  0xea, 0xcf, 0x58, 0x0a, 0xad, 0xf5, 0x24, 0xca, 0xbb, 0x25, 0xfe, 0x70,
  0xff, 0x24, 0x30, 0x2c, 0x17, 0x4c, 0xe2, 0xd2, 0x00, 0x8f, 0x1b, 0xf9,
  0x1b, 0x4d, 0x50, 0x60, 0xab, 0xfc, 0xaa, 0xcd, 0x1e, 0x0f, 0xac, 0xbd,
  0x71, 0xe9, 0x47, 0x1e, 0x64, 0xdc, 0x25, 0x3b, 0xd8, 0x29, 0x2f, 0xc4,
  0x6a, 0x4e, 0xd1, 0xcc, 0x9a, 0x8f, 0x5f, 0x90, 0x8e, 0xed, 0xff, 0xff,
  0x04, 0x00, 0x00, 0x00, 0x00, 0x01, 0x00, 0x00, 0xe6, 0x11, 0x00, 0x00,
  0x00, 0x00, 0x00, 0x00, 0x0a, 0x12, 0x00, 0x00, 0x00, 0x00, 0x00, 0x00,
  0xf2, 0x10, 0x00, 0x00, 0x00, 0x00, 0x00, 0x00, 0x00, 0x00, 0x00, 0x00,
  0x00, 0x00, 0x00, 0x00, 0x00, 0x00, 0x00, 0x00, 0x00, 0x00, 0x00, 0x00,
  0xfd, 0x0f, 0x00, 0x00, 0x8a, 0xf5, 0xff, 0xff, 0x00, 0x00, 0x00, 0x00,
  0x00, 0x00, 0x00, 0x00, 0x70, 0x12, 0x00, 0x00, 0x00, 0x00, 0x00, 0x00,
  0x00, 0x00, 0x00, 0x00, 0xd8, 0x0b, 0x00, 0x00, 0x00, 0x00, 0x00, 0x00,
  0x27, 0x12, 0x00, 0x00, 0x00, 0x00, 0x00, 0x00, 0x79, 0x11, 0x00, 0x00,
  0xea, 0x0d, 0x00, 0x00, 0xf6, 0x12, 0x00, 0x00, 0x56, 0x12, 0x00, 0x00,
  0x5f, 0xfc, 0xff, 0xff, 0x00, 0x00, 0x00, 0x00, 0x00, 0x00, 0x00, 0x00,
  0xd2, 0xfe, 0xff, 0xff, 0x00, 0x00, 0x00, 0x00, 0x61, 0x11, 0x00, 0x00,
  0x00, 0x00, 0x00, 0x00, 0x56, 0xf0, 0xff, 0xff, 0xe8, 0x12, 0x00, 0x00,
  0xa4, 0xfb, 0xff, 0xff, 0xbb, 0x11, 0x00, 0x00, 0x00, 0x00, 0x00, 0x00,
  0x00, 0x00, 0x00, 0x00, 0x00, 0x00, 0x00, 0x00, 0x00, 0x00, 0x00, 0x00,
  0x0f, 0x13, 0x00, 0x00, 0x90, 0xf5, 0xff, 0xff, 0x00, 0x00, 0x00, 0x00,
  0x00, 0x00, 0x00, 0x00, 0xee, 0x0c, 0x00, 0x00, 0x00, 0x00, 0x00, 0x00,
  0x4c, 0x11, 0x00, 0x00, 0xcb, 0xfc, 0xff, 0xff, 0x95, 0x10, 0x00, 0x00,
  0x00, 0x00, 0x00, 0x00, 0xe5, 0xf1, 0xff, 0xff, 0x0d, 0x10, 0x00, 0x00,
  0x00, 0x00, 0x00, 0x00, 0x64, 0x12, 0x00, 0x00, 0xe6, 0xfc, 0xff, 0xff,
  0x00, 0x00, 0x00, 0x00, 0x4e, 0x07, 0x00, 0x00, 0xf4, 0x13, 0x00, 0x00,
  0x00, 0x00, 0x00, 0x00, 0x00, 0x00, 0x00, 0x00, 0x00, 0x00, 0x00, 0x00,
  0x00, 0x00, 0x00, 0x00, 0x70, 0x11, 0x00, 0x00, 0x00, 0x00, 0x00, 0x00,
  0x9a, 0xee, 0xff, 0xff, 0x04, 0x00, 0x00, 0x00, 0x00, 0x10, 0x00, 0x00,
  0xc3, 0x5b, 0xa7, 0x97, 0xcd, 0xd6, 0xfa, 0xa5, 0xe3, 0x2e, 0x56, 0xd3,
  0x49, 0x97, 0xf7, 0x15, 0xec, 0x63, 0x97, 0x5c, 0xbb, 0x1e, 0x4b, 0x96,
  0xe3, 0x40, 0x3d, 0x4c, 0x3b, 0xa2, 0xfe, 0xc0, 0x9f, 0x07, 0xca, 0xef,
  0xa5, 0x00, 0x27, 0xdf, 0xb8, 0xf7, 0xb3, 0x22, 0xca, 0xfc, 0xc6, 0xb6,
  0x24, 0xdf, 0x46, 0xdb, 0xc8, 0x49, 0x4b, 0x42, 0xc9, 0xf6, 0x9c, 0x25,
  0x15, 0x67, 0x56, 0xd0, 0x60, 0xed, 0xdd, 0x1f, 0x2f, 0x3b, 0x16, 0x34,
  0xbc, 0xc7, 0x43, 0x72, 0xf6, 0xc0, 0x6e, 0xc3, 0xc0, 0xac, 0x15, 0xea,
  0xd7, 0xb9, 0xaa, 0x3f, 0x29, 0x46, 0x60, 0xad, 0x4f, 0x2b, 0xed, 0x07,
  0x0a, 0x13, 0x2f, 0x71, 0x57, 0x45, 0xee, 0xe9, 0x25, 0x07, 0x26, 0x30,
  0x3a, 0x35, 0x64, 0x5d, 0x48, 0x59, 0xd3, 0xb0, 0x01, 0x14, 0xaa, 0xed,
  0x68, 0x2f, 0x25, 0x44, 0xf1, 0x58, 0xd3, 0x4f, 0x74, 0xa2, 0xf9, 0x54,
  0xf8, 0xf3, 0x9d, 0x01, 0x1a, 0x05, 0x6f, 0x42, 0x06, 0x60, 0xd8, 0x5c,
  0x04, 0x65, 0xc8, 0x38, 0xe7, 0x2d, 0xf3, 0x72, 0x0c, 0x57, 0xa1, 0x4a,
  0x16, 0x21, 0x33, 0xf8, 0x08, 0xed, 0xed, 0xcd, 0x17, 0x37, 0x1b, 0x22,
  0x19, 0x17, 0x34, 0x9e, 0xd6, 0x0e, 0x67, 0xff, 0x1c, 0x51, 0x58, 0x66,
  0x47, 0x17, 0xf1, 0x61, 0x4e, 0x2f, 0x43, 0x43, 0x97, 0xc6, 0x7a, 0x3c,
  0xa7, 0x13, 0x25, 0x22, 0xdf, 0x6a, 0xae, 0xec, 0xd7, 0xfb, 0x07, 0xbf,
  0x53, 0x1f, 0x06, 0x44, 0xcf, 0x18, 0xf1, 0xb0, 0x58, 0xa5, 0x1b, 0x1c,
  0x9a, 0x18, 0x1e, 0x2f, 0x12, 0x9d, 0xba, 0x99, 0x09, 0x29, 0xb5, 0x56,
  0x45, 0x68, 0xda, 0xa6, 0xe1, 0x3d, 0x1e, 0x5f, 0xab, 0xe2, 0xa9, 0x57,
  0x0f, 0x63, 0x26, 0x18, 0xd7, 0xde, 0x3a, 0xb6, 0xd4, 0x3d, 0xbe, 0xe7,
  0x06, 0xe6, 0xd6, 0x59, 0xea, 0x3b, 0xfc, 0xc0, 0x4f, 0xc5, 0x52, 0x5f,
  0x3f, 0xef, 0x47, 0xd4, 0x22, 0xb3, 0xa2, 0xb3, 0x34, 0xbe, 0x53, 0x42,
  0xe8, 0x49, 0xb7, 0xcf, 0xf5, 0x03, 0x4a, 0x50, 0x00, 0x1e, 0x0d, 0x59,
  0x36, 0x9e, 0xea, 0xc2, 0xc6, 0xae, 0x0a, 0xbf, 0xd1, 0xc9, 0x1c, 0x18,
  0xbe, 0x26, 0x41, 0x9f, 0x4b, 0xbd, 0x51, 0xe8, 0xc6, 0x99, 0x43, 0x2a,
  0x9f, 0xeb, 0x06, 0x35, 0x21, 0xf8, 0x4f, 0xa7, 0x1e, 0x4f, 0x39, 0x33,
  0xcc, 0xff, 0xc6, 0xc5, 0xc8, 0x25, 0xb0, 0x02, 0xa4, 0xe6, 0x0a, 0xfe,
  0x39, 0x55, 0x9c, 0x50, 0x5e, 0xed, 0xb6, 0xa2, 0x46, 0xae, 0xc9, 0x56,
  0x32, 0xe3, 0x47, 0x62, 0x06, 0xd0, 0xbe, 0x68, 0xc5, 0xc8, 0x56, 0xf4,
  0x3a, 0xc0, 0x14, 0x30, 0xa2, 0x3a, 0xf5, 0xed, 0xf3, 0x61, 0x32, 0x48,
  0xf2, 0xb3, 0xe7, 0xa8, 0xda, 0x21, 0x3e, 0xa8, 0x56, 0xbe, 0xf7, 0x62,
  0x4d, 0xfc, 0x16, 0xcd, 0x07, 0xbd, 0xe8, 0xf4, 0x40, 0xe6, 0xa6, 0xcf,
  0x21, 0x60, 0x07, 0xf2, 0x04, 0xd0, 0x28, 0x0e, 0xee, 0x25, 0xf5, 0xc1,
  0xf1, 0x09, 0xf2, 0x58, 0xb6, 0xcb, 0x01, 0x43, 0x2b, 0xb4, 0xc9, 0xb6,
  0xee, 0xa8, 0x43, 0x5a, 0x5b, 0xba, 0xd4, 0xe6, 0x59, 0x06, 0xd4, 0x9b,
  0x25, 0xfa, 0xfb, 0x65, 0xc9, 0xe3, 0x2f, 0xcf, 0x9b, 0x05, 0x4b, 0x4c,
  0xca, 0x63, 0x0d, 0xb4, 0xf1, 0x66, 0xe7, 0x97, 0x0e, 0xb2, 0xaa, 0xcc,
  0xf1, 0x4f, 0xc2, 0x3e, 0x4d, 0x50, 0xc7, 0xc2, 0xcc, 0xff, 0xf9, 0x07,
  0xe0, 0x60, 0x3f, 0x4e, 0x3f, 0xf3, 0xa5, 0xb9, 0x4e, 0xd9, 0x10, 0x33,
  0xbf, 0xa9, 0xa2, 0x31, 0xd7, 0x65, 0x08, 0xb8, 0xf0, 0x9e, 0xbd, 0x27,
  0x49, 0x14, 0x59, 0x08, 0xd2, 0x1c, 0x45, 0xd3, 0xaf, 0x0b, 0x35, 0x26,
  0x47, 0xd2, 0xb0, 0xac, 0xc7, 0x9e, 0xdb, 0x1f, 0xf7, 0x0a, 0x30, 0x0f,
  0x73, 0x57, 0x46, 0x23, 0xc8, 0xab, 0x47, 0xd3, 0x08, 0x45, 0x15, 0xee,
  0xde, 0x46, 0xc5, 0x62, 0x9a, 0x24, 0x79, 0x1b, 0x1e, 0xff, 0x26, 0x20,
  0xf3, 0x5e, 0x37, 0x4e, 0x2c, 0x6f, 0xbf, 0xe1, 0x9c, 0xc5, 0x19, 0x13,
  0x6f, 0x48, 0x97, 0xc7, 0x14, 0x9e, 0x73, 0xb1, 0x5f, 0x30, 0x75, 0xba,
  0xa7, 0x25, 0x2b, 0x49, 0xe4, 0xac, 0xa7, 0x19, 0x5f, 0xba, 0x08, 0xd4,
  0xb8, 0x2f, 0x54, 0x0e, 0x1c, 0x45, 0x60, 0xbb, 0xc7, 0xa1, 0x36, 0x32,
  0xf3, 0x96, 0xdd, 0x4f, 0xb9, 0xd4, 0x24, 0xa0, 0xa0, 0x4e, 0x2a, 0xde,
  0x3c, 0x23, 0x27, 0xb2, 0xff, 0x9f, 0xe1, 0x35, 0x4b, 0x14, 0xe7, 0xd5,
  0x2e, 0xbc, 0xba, 0xb5, 0x25, 0x0b, 0x60, 0xb0, 0xd3, 0x06, 0xbb, 0x44,
  0xb4, 0x22, 0xa6, 0xbd, 0x1d, 0xb1, 0x69, 0x32, 0x07, 0xa8, 0xb0, 0x19,
  0xd8, 0x0e, 0x4e, 0xb3, 0x23, 0xa4, 0x45, 0x05, 0x66, 0xcb, 0xee, 0xef,
  0x06, 0xe8, 0xc1, 0xe1, 0xed, 0x3e, 0x0e, 0xb7, 0x07, 0x40, 0xab, 0xfd,
  0xb2, 0x6c, 0x54, 0x11, 0x26, 0x62, 0x01, 0x31, 0x06, 0xe9, 0x12, 0x3c,
  0x0d, 0x38, 0x46, 0x07, 0xbf, 0xbb, 0x98, 0x1f, 0x62, 0x45, 0x1a, 0x58,
  0x1b, 0x9a, 0xff, 0x3e, 0xd5, 0x47, 0x3f, 0x6b, 0x4c, 0x6a, 0xaa, 0x36,
  0xcd, 0xb5, 0xb9, 0x98, 0x10, 0x55, 0xe0, 0x4a, 0x53, 0xbb, 0xf7, 0xfa,
  0x0a, 0x1c, 0x00, 0x29, 0x63, 0xfa, 0xb2, 0xdd, 0x2c, 0x53, 0x3b, 0x28,
  0xee, 0xc6, 0xdf, 0xc5, 0xec, 0x28, 0x7c, 0x4d, 0xd1, 0xc4, 0xb6, 0xe9,
  0xff, 0xcd, 0x0c, 0xed, 0xc9, 0x5e, 0xde, 0x4e, 0xd5, 0xbd, 0xc6, 0xb6,
  0x38, 0xda, 0x1b, 0xe4, 0x75, 0x96, 0x59, 0x50, 0x47, 0xd3, 0xfb, 0xb1,
  0xf8, 0xd2, 0x39, 0xab, 0x5b, 0x45, 0xa2, 0xd1, 0xc0, 0xc2, 0xf8, 0x97,
  0x5a, 0x38, 0x4d, 0x20, 0x59, 0xf7, 0x2a, 0x48, 0x4e, 0xf9, 0x02, 0x01,
  0xd8, 0xe0, 0x66, 0xac, 0xe7, 0x6e, 0x4a, 0x2e, 0x2b, 0x4b, 0x0e, 0x73,
  0xb7, 0xe3, 0x49, 0x4c, 0xf9, 0x9c, 0x44, 0x28, 0x09, 0xd5, 0x4b, 0x71,
  0x3b, 0xa0, 0x5f, 0x48, 0x06, 0x53, 0x14, 0x41, 0xcf, 0x19, 0xce, 0x6c,
  0x4c, 0xfb, 0xe9, 0x7a, 0x34, 0xad, 0x45, 0xdc, 0xf4, 0xa9, 0x30, 0xae,
  0x0c, 0xa4, 0x67, 0xf9, 0xcf, 0x28, 0x53, 0xf4, 0xfa, 0xa9, 0x00, 0xd9,
  0xfd, 0xe5, 0x9a, 0x39, 0x63, 0x53, 0xc7, 0xd5, 0x9f, 0x25, 0x97, 0xd5,
  0xf6, 0xa6, 0xe1, 0xe5, 0xcd, 0x56, 0x44, 0xc7, 0xcc, 0xc7, 0x48, 0x52,
  0x27, 0x59, 0x18, 0xa9, 0x52, 0x15, 0x68, 0xbd, 0xde, 0x0b, 0xe2, 0x5f,
  0x17, 0xf1, 0xbd, 0x4e, 0xfd, 0xdf, 0xe1, 0x19, 0x56, 0x52, 0x10, 0x2d,
  0xb8, 0x39, 0xc4, 0xd6, 0x01, 0x01, 0x25, 0xb0, 0xcd, 0xab, 0xb4, 0x08,
  0xd0, 0xd4, 0xcd, 0x0b, 0xdb, 0x2f, 0xde, 0x51, 0xbb, 0x00, 0x15, 0xfc,
  0x1e, 0x63, 0xda, 0x9c, 0xdd, 0xe5, 0x4d, 0xad, 0x0c, 0x0d, 0xfe, 0x55,
  0x4c, 0xb4, 0x01, 0x09, 0x47, 0x63, 0xae, 0x3f, 0xbb, 0x11, 0xef, 0xf8,
  0x5f, 0xb4, 0x9b, 0x0a, 0xfe, 0x2d, 0x41, 0xb2, 0x9f, 0x55, 0x05, 0xd6,
  0x09, 0xe2, 0x3b, 0xeb, 0x0e, 0x39, 0xda, 0x31, 0xe8, 0x14, 0x13, 0x08,
  0x61, 0x5c, 0xc9, 0x01, 0x52, 0xee, 0xc0, 0x2d, 0xf9, 0x30, 0xe5, 0x56,
  0x67, 0xef, 0x5e, 0x5f, 0xf1, 0xd5, 0x13, 0xf5, 0x4d, 0xec, 0x29, 0x49,
  0x05, 0x3e, 0xc3, 0xee, 0x5a, 0x2e, 0x3b, 0x20, 0x53, 0xcb, 0xec, 0x96,
  0xf0, 0x30, 0x32, 0x03, 0xde, 0xb3, 0x60, 0xf7, 0x31, 0xa7, 0x0a, 0x10,
  0xcd, 0x0e, 0x28, 0x27, 0x3d, 0x99, 0xfa, 0xa1, 0xef, 0xcc, 0xdd, 0x2c,
  0x11, 0x5d, 0x3f, 0xf0, 0x7b, 0x5e, 0x0d, 0x1e, 0x09, 0x68, 0xc6, 0xb8,
  0x3d, 0x1e, 0x7c, 0x2f, 0xe7, 0x11, 0xac, 0x4e, 0x96, 0x24, 0xcc, 0x75,
  0x3d, 0x2a, 0x31, 0x19, 0xb4, 0xe9, 0xdb, 0x55, 0x67, 0x9c, 0x38, 0xbd,
  0xc0, 0x39, 0x32, 0x36, 0xb5, 0x3f, 0xd3, 0xef, 0xee, 0xe9, 0x42, 0xbe,
  0xbf, 0x0f, 0x2b, 0xe1, 0xef, 0x30, 0x2b, 0xad, 0x03, 0x42, 0x39, 0x61,
  0x25, 0x14, 0x43, 0x68, 0x63, 0x2a, 0x25, 0x66, 0xfc, 0xee, 0x27, 0xbf,
  0xd7, 0x0a, 0x24, 0xf3, 0x2f, 0xf2, 0xf4, 0xc5, 0x06, 0xac, 0x3f, 0xc0,
  0xb6, 0x5e, 0x27, 0xaa, 0x1d, 0xf3, 0x96, 0xa9, 0x14, 0xbc, 0x96, 0xdf,
  0x52, 0x4d, 0x1b, 0xdb, 0xfe, 0x44, 0xa5, 0xfe, 0x0d, 0x62, 0xd9, 0x40,
  0xa8, 0xd9, 0x20, 0x39, 0xac, 0x0b, 0x99, 0xe2, 0xc3, 0x46, 0x97, 0x2b,
  0xae, 0xee, 0xd0, 0xeb, 0x1f, 0x57, 0xcd, 0xa6, 0x3c, 0x26, 0x29, 0x33,
  0x36, 0x49, 0x46, 0x65, 0x0d, 0x42, 0x11, 0xf8, 0x4c, 0xd7, 0xd6, 0x04,
  0xb3, 0xd5, 0x11, 0x97, 0x48, 0xf7, 0x3f, 0x5c, 0xa5, 0x49, 0x03, 0x6e,
  0x07, 0xe4, 0x27, 0x19, 0x0a, 0xe0, 0x33, 0x33, 0x68, 0x61, 0x41, 0xe4,
  0xf3, 0xce, 0xb1, 0xd7, 0xda, 0xe5, 0xeb, 0xf6, 0xd7, 0xd7, 0x28, 0x0d,
  0x1c, 0xa6, 0xf2, 0x2d, 0xc9, 0xc8, 0x00, 0xa8, 0x25, 0x13, 0x45, 0xed,
  0xe2, 0xab, 0x2b, 0xd6, 0x0c, 0x24, 0x39, 0xe2, 0x4a, 0x64, 0x17, 0xd8,
  0x5b, 0x08, 0x0b, 0xa3, 0x5e, 0x14, 0xef, 0x3d, 0xbe, 0x2a, 0x2f, 0x5b,
  0x13, 0x8b, 0x18, 0xa4, 0x99, 0x49, 0x10, 0xd8, 0xde, 0xc4, 0x23, 0xfd,
  0x3a, 0x22, 0x00, 0x1a, 0x05, 0xc3, 0xd7, 0x45, 0xa3, 0x15, 0x2a, 0x61,
  0x2b, 0x08, 0x58, 0xea, 0x09, 0x24, 0x24, 0x39, 0x2f, 0xef, 0x47, 0xac,
  0x3a, 0x42, 0x0a, 0xf8, 0xc2, 0x0e, 0x18, 0xc1, 0xf7, 0xc4, 0x98, 0xcc,
  0x65, 0x12, 0xc8, 0x40, 0x22, 0xd6, 0xfa, 0x42, 0xec, 0xf9, 0xd5, 0x28,
  0x17, 0xeb, 0xfa, 0xc1, 0x1e, 0x34, 0x9a, 0xbb, 0x67, 0x59, 0xe1, 0x97,
  0xf6, 0xe1, 0xdb, 0x48, 0xf2, 0x40, 0x51, 0xaa, 0xa4, 0x07, 0xe4, 0x21,
  0xbd, 0xe2, 0xe2, 0x41, 0x25, 0x57, 0xd7, 0x5c, 0xce, 0xf3, 0x1b, 0xb4,
  0x06, 0xff, 0xe9, 0xb3, 0x27, 0xd5, 0x48, 0x4a, 0x97, 0xc9, 0xa3, 0xa3,
  0xd0, 0x54, 0xbf, 0x49, 0xc3, 0x28, 0x2c, 0x0e, 0x38, 0x11, 0xda, 0xf1,
  0xe8, 0xca, 0xaa, 0xf6, 0x03, 0x39, 0x66, 0x5b, 0xaf, 0xf7, 0xdb, 0xb4,
  0xdd, 0xb4, 0xfb, 0x9c, 0xa0, 0xad, 0x98, 0x18, 0x97, 0xba, 0xf1, 0xde,
  0x2f, 0x08, 0x4b, 0x04, 0xfd, 0xfe, 0x3a, 0x0e, 0xce, 0x10, 0x10, 0x24,
  0xf3, 0x5c, 0x58, 0x4d, 0x2d, 0xba, 0x99, 0x2b, 0x06, 0xe3, 0xb2, 0xc8,
  0x25, 0x45, 0xaa, 0x3d, 0xbd, 0x45, 0xa2, 0xe7, 0xff, 0xfc, 0x60, 0xdc,
  0x0a, 0x9f, 0xa4, 0x57, 0xac, 0xea, 0xf4, 0xef, 0x5a, 0x0b, 0x11, 0xdb,
  0xce, 0xde, 0x1c, 0xa3, 0x5c, 0xfd, 0x29, 0x99, 0xa1, 0x62, 0x2f, 0x28,
  0xf4, 0x26, 0xa3, 0x4f, 0xd8, 0xd4, 0xb0, 0x4e, 0xe4, 0x2d, 0xe7, 0xc9,
  0xfe, 0xf8, 0xef, 0x20, 0xa1, 0x58, 0x60, 0xa5, 0xf6, 0xb3, 0xa2, 0x23,
  0x55, 0xcc, 0xc1, 0x25, 0x00, 0x54, 0xcf, 0xb6, 0xbe, 0x13, 0xcb, 0xf6,
  0x09, 0xed, 0xbc, 0xbb, 0x48, 0x0d, 0xc2, 0xe1, 0xaf, 0x2d, 0xd1, 0x3d,
  0x0d, 0xcb, 0x09, 0x0a, 0x06, 0x66, 0x9f, 0x54, 0xda, 0x23, 0x55, 0xa7,
  0x03, 0xd0, 0xa6, 0x2f, 0x59, 0x2b, 0xec, 0xbe, 0xab, 0x1a, 0xf2, 0x37,
  0x41, 0xa7, 0xb5, 0x44, 0x22, 0x2e, 0xc6, 0xe1, 0x4e, 0xcc, 0xb7, 0x4f,
  0x14, 0x64, 0xdc, 0xcc, 0x18, 0xc6, 0x31, 0x65, 0x59, 0xc3, 0xfc, 0xd7,
  0x20, 0x34, 0x17, 0x42, 0x35, 0xb5, 0xf4, 0x26, 0x22, 0x63, 0x41, 0xc0,
  0x3a, 0x3f, 0x71, 0xaf, 0x9b, 0x63, 0xac, 0x3f, 0x27, 0x03, 0x0e, 0x57,
  0x69, 0xd7, 0x4e, 0xc6, 0xe8, 0xde, 0xcf, 0xbd, 0x35, 0xbf, 0xed, 0x32,
  0xf3, 0xeb, 0xa8, 0x0a, 0x37, 0xe6, 0x0b, 0xaa, 0x75, 0x08, 0xc7, 0xc3,
  0x11, 0x5f, 0xfe, 0xca, 0x0c, 0x75, 0xb8, 0x4c, 0x0f, 0xff, 0x4f, 0x9d,
  0x60, 0xe7, 0x7c, 0x38, 0xd2, 0x2e, 0x40, 0xe7, 0x40, 0xd7, 0xe1, 0xa2,
  0xc0, 0xc1, 0x4c, 0x19, 0xdd, 0x65, 0xc1, 0xfe, 0xe8, 0xb4, 0x13, 0xb7,
  0x23, 0xe9, 0x00, 0x9c, 0xad, 0xea, 0x62, 0x3e, 0x0c, 0x65, 0x45, 0x43,
  0x10, 0xd3, 0x25, 0x4f, 0x4a, 0xdf, 0x9b, 0x19, 0xb8, 0x93, 0x57, 0x60,
  0x59, 0xe2, 0x53, 0xdc, 0x3c, 0xa6, 0x18, 0x22, 0x45, 0x1c, 0x40, 0x1d,
  0xe6, 0x01, 0x0d, 0x34, 0x07, 0xff, 0x30, 0x38, 0x55, 0x45, 0x9c, 0x53,
  0xa0, 0x02, 0xc2, 0x27, 0xbd, 0x4c, 0x20, 0x56, 0x3f, 0xf8, 0x10, 0xe3,
  0x3b, 0xae, 0x1a, 0x09, 0x40, 0xe3, 0xd3, 0xf5, 0x0f, 0xf9, 0x36, 0x01,
  0x5a, 0xe9, 0x0d, 0x15, 0xa2, 0xc1, 0x65, 0x4d, 0x05, 0xd5, 0xd7, 0x47,
  0x5b, 0xa1, 0x54, 0x37, 0xa6, 0x26, 0x48, 0x1c, 0x40, 0xce, 0x11, 0xc8,
  0xbb, 0x35, 0x2d, 0x17, 0x10, 0xd1, 0xf8, 0x56, 0xf5, 0xb6, 0xee, 0x67,
  0xaf, 0x68, 0xce, 0xa0, 0x3b, 0xaf, 0xdb, 0x6a, 0xdf, 0x65, 0xda, 0x0f,
  0x38, 0x21, 0xb1, 0xdc, 0xdf, 0x4d, 0xb7, 0x4a, 0x44, 0xf8, 0x6a, 0x9d,
  0xcf, 0xa5, 0x5b, 0xd7, 0x58, 0xe5, 0xed, 0xa1, 0xaf, 0x64, 0x17, 0xbf,
  0x27, 0x5c, 0xb8, 0x27, 0x2c, 0x38, 0xa0, 0xb9, 0xc6, 0x4b, 0xd2, 0xbb,
  0x0e, 0x28, 0x38, 0xa1, 0x2b, 0x4f, 0xb7, 0xfe, 0xfa, 0x11, 0xdf, 0x2f,
  0x0c, 0xcd, 0x0e, 0xb9, 0xe2, 0x1b, 0xb3, 0xfd, 0x24, 0xe4, 0xb8, 0x1c,
  0x3a, 0x9e, 0x4c, 0xbc, 0x9b, 0x23, 0x19, 0xe0, 0xd8, 0x99, 0x13, 0x33,
  0x53, 0x09, 0x3e, 0x5e, 0xd4, 0xf1, 0xab, 0x06, 0x11, 0xab, 0x40, 0x5d,
  0xc6, 0x5d, 0xfd, 0xef, 0xdf, 0x4f, 0xea, 0x05, 0xf9, 0x09, 0x51, 0x65,
  0x3a, 0x29, 0x3e, 0x3e, 0xb8, 0x1e, 0x5e, 0xb2, 0xe6, 0xa8, 0xb4, 0x1d,
  0xa0, 0xa2, 0x14, 0x40, 0x1e, 0xa0, 0x2a, 0x48, 0x36, 0xf6, 0xd9, 0x40,
  0xc5, 0x47, 0x07, 0xd8, 0xce, 0xf5, 0xcb, 0xf4, 0x30, 0x21, 0xec, 0x41,
  0x00, 0xf5, 0x03, 0xa1, 0xa7, 0x41, 0xed, 0xbb, 0xfa, 0x19, 0xfd, 0xed,
  0x17, 0xfb, 0x02, 0xa8, 0xad, 0xa3, 0x65, 0x54, 0xf9, 0x18, 0x18, 0xa6,
  0xd2, 0x97, 0xee, 0x14, 0x5d, 0x19, 0x0e, 0xb6, 0xb3, 0x3f, 0xb2, 0xb3,
  0x34, 0xfd, 0xa9, 0x0c, 0x9d, 0x4d, 0x3a, 0x28, 0xcf, 0xca, 0xe0, 0xce,
  0xee, 0x1f, 0xf1, 0x16, 0x4c, 0x9f, 0x40, 0x11, 0x5c, 0xe6, 0x26, 0xd3,
  0x09, 0x3b, 0xa5, 0x40, 0x40, 0x98, 0x46, 0xe4, 0x9b, 0x13, 0x49, 0xf5,
  0x62, 0x55, 0xcf, 0xca, 0xf4, 0x0d, 0x9f, 0xfa, 0x55, 0xfe, 0xf9, 0x12,
  0x5f, 0xac, 0xce, 0x0e, 0xf9, 0x3b, 0x17, 0xd6, 0x53, 0xa5, 0x19, 0xa1,
  0xa5, 0x60, 0xf4, 0x0b, 0x28, 0x65, 0x0f, 0x1a, 0xb6, 0xac, 0xc5, 0xa5,
  0x0b, 0xa2, 0x9e, 0xc3, 0x63, 0xef, 0xbe, 0xae, 0x64, 0xf7, 0x15, 0x50,
  0xdc, 0xc0, 0xa5, 0x39, 0x01, 0xc4, 0x24, 0x69, 0xf9, 0x45, 0x3d, 0x58,
  0x46, 0x15, 0x9f, 0xca, 0xe7, 0x18, 0x01, 0xcc, 0x6a, 0x2f, 0x24, 0x62,
  0x18, 0x53, 0xe9, 0xba, 0x9a, 0x1f, 0xe8, 0x2d, 0x19, 0x21, 0x99, 0xde,
  0x16, 0x26, 0xbd, 0x17, 0xb9, 0x45, 0xe1, 0xd4, 0x08, 0xb1, 0x9b, 0xa7,
  0x23, 0x29, 0x2b, 0xb2, 0xf9, 0x9e, 0xfa, 0x27, 0xc0, 0xef, 0xb5, 0xc4,
  0x56, 0x1c, 0xc1, 0x60, 0x24, 0x9a, 0xf3, 0x19, 0xe0, 0x68, 0x23, 0x32,
  0x0b, 0xa8, 0x3b, 0xc6, 0x5e, 0xfd, 0x5d, 0x05, 0xc3, 0x0a, 0x42, 0x11,
  0xa7, 0x29, 0xad, 0xd7, 0xa3, 0x9e, 0xde, 0x3f, 0x59, 0xfb, 0xe5, 0x9a,
  0x63, 0xc9, 0xdc, 0xe0, 0x9a, 0xb3, 0x59, 0x68, 0x0a, 0xa7, 0x0d, 0xd9,
  0x0c, 0x2b, 0xf6, 0xa1, 0x9f, 0x23, 0x2c, 0x25, 0xf6, 0xfb, 0xca, 0x1a,
  0xd0, 0xf6, 0x0d, 0xbd, 0x79, 0x1d, 0xaf, 0xe1, 0xd8, 0x1d, 0x47, 0x0b,
  0xf0, 0xc2, 0x0a, 0xe4, 0xd6, 0x43, 0x5b, 0x75, 0x34, 0x51, 0xda, 0x0c,
  0x20, 0xdc, 0x44, 0x5c, 0x9b, 0x9e, 0x18, 0xcb, 0x2b, 0x22, 0xe9, 0x27,
  0x2b, 0xa5, 0x98, 0xb6, 0x60, 0xca, 0x98, 0x4b, 0xf3, 0xfd, 0x58, 0xca,
  0x4d, 0xdb, 0xc4, 0x45, 0xf8, 0x6d, 0x12, 0x58, 0x04, 0xf3, 0xd6, 0xe2,
  0xb0, 0x0e, 0x1b, 0x9d, 0xef, 0x2d, 0x50, 0x0e, 0xd8, 0x11, 0x2f, 0xd3,
  0xcc, 0x9d, 0x35, 0x48, 0x1c, 0x5c, 0x31, 0x37, 0xe7, 0xbf, 0xdb, 0xc7,
  0x13, 0x1c, 0x33, 0x12, 0xee, 0xf7, 0x2d, 0x00, 0xa8, 0xdd, 0xe2, 0x38,
  0xb3, 0xed, 0xbf, 0x06, 0xa6, 0xa4, 0xfb, 0xa9, 0xf3, 0x27, 0xeb, 0x41,
  0xe6, 0x45, 0xcc, 0xa8, 0x3d, 0x06, 0x2d, 0x47, 0x4b, 0xb3, 0xbb, 0x9c,
  0xfb, 0xa9, 0xe9, 0xc2, 0xc1, 0x9e, 0x64, 0xa0, 0x02, 0x03, 0x43, 0x5f,
  0xe4, 0x38, 0xe3, 0x1b, 0xc6, 0xc3, 0x4a, 0x46, 0x2b, 0x59, 0xf7, 0xfb,
  0xa0, 0xab, 0x17, 0x6d, 0x2c, 0x31, 0x11, 0x4d, 0x08, 0x19, 0xbb, 0xf3,
  0x46, 0xe3, 0x24, 0xe4, 0xca, 0x2c, 0xad, 0xd8, 0xc1, 0xc5, 0x5e, 0x06,
  0x14, 0xb2, 0x49, 0x47, 0x5f, 0x1d, 0x43, 0x1b, 0xad, 0xda, 0xcb, 0x70,
  0x30, 0x48, 0xd2, 0xe1, 0x4f, 0x35, 0x04, 0x11, 0x35, 0x02, 0x24, 0x0d,
  0x64, 0x5d, 0x11, 0xc7, 0xf4, 0x28, 0xff, 0x0a, 0xb0, 0xc6, 0xae, 0x21,
  0xaf, 0xee, 0xce, 0x32, 0x4e, 0xcf, 0x50, 0x3f, 0xee, 0x03, 0xd5, 0x11,
  0x53, 0xaa, 0x64, 0xd1, 0x51, 0x4b, 0x65, 0xbc, 0x46, 0x25, 0x38, 0xfc,
  0x58, 0x1d, 0x57, 0x22, 0x61, 0x5d, 0x59, 0xd1, 0x25, 0x33, 0xb3, 0x93,
  0xc1, 0x3e, 0xff, 0x03, 0x15, 0x15, 0x2f, 0x16, 0x46, 0xa5, 0xaa, 0x06,
  0xa0, 0xce, 0x9b, 0x0d, 0xd4, 0xae, 0x52, 0x97, 0x10, 0x27, 0x9d, 0xc5,
  0xf1, 0xeb, 0x60, 0x59, 0x1d, 0x5c, 0x27, 0x32, 0xe6, 0x38, 0xe4, 0x09,
  0xa2, 0x4c, 0x23, 0x7c, 0x22, 0xea, 0xc0, 0x96, 0x24, 0x26, 0xb6, 0xd1,
  0x04, 0xef, 0xcf, 0x0d, 0x34, 0x98, 0x2a, 0xac, 0x7f, 0xac, 0xaf, 0xc6,
  0x21, 0x27, 0x69, 0xba, 0x34, 0xc6, 0xef, 0x37, 0x9d, 0x01, 0xed, 0xbc,
  0xea, 0x77, 0x0f, 0xea, 0x52, 0x5b, 0x12, 0x3d, 0x67, 0xa0, 0x52, 0x65,
  0x17, 0x3f, 0xb5, 0xa3, 0x24, 0xfd, 0x3e, 0xc8, 0x54, 0x43, 0x65, 0xf4,
  0xca, 0xbd, 0xe8, 0xdd, 0xba, 0x4d, 0xbf, 0xb8, 0x5d, 0xd3, 0x0c, 0xf5,
  0x10, 0xf6, 0xc9, 0xc5, 0xfc, 0xb6, 0x0f, 0xe6, 0xba, 0x10, 0xd2, 0x35,
  0xba, 0xa3, 0x3a, 0x42, 0x99, 0xbc, 0xde, 0x96, 0x60, 0xfd, 0x2a, 0x55,
  0xd0, 0xd7, 0xcd, 0x9b, 0xee, 0x1d, 0x68, 0x0e, 0x14, 0x55, 0xdd, 0x2a,
  0x2d, 0x44, 0xe2, 0x36, 0xdd, 0xb6, 0xdf, 0xd1, 0xf8, 0xa0, 0x0e, 0x25,
  0xcc, 0x44, 0x96, 0x49, 0xe8, 0xf0, 0x37, 0x14, 0xb4, 0xa6, 0x05, 0xb2,
  0x17, 0x5c, 0xf4, 0x0f, 0xd5, 0x23, 0x27, 0xc3, 0xa5, 0xc4, 0xd7, 0x1b,
  0xf5, 0xde, 0xe5, 0x10, 0x2b, 0x2f, 0xf2, 0xb1, 0xfb, 0xee, 0xa8, 0xc9,
  0xbe, 0x60, 0x1a, 0xc1, 0xf4, 0x64, 0x04, 0xa7, 0xc1, 0x43, 0xad, 0xe8,
  0xb5, 0xcb, 0x08, 0x41, 0xdb, 0x19, 0x97, 0x29, 0x1b, 0xa4, 0xbd, 0xf7,
  0x67, 0x2f, 0x5f, 0xce, 0xb8, 0xa8, 0xee, 0x34, 0x0a, 0x40, 0x33, 0xb9,
  0x06, 0x08, 0xa8, 0xd0, 0x01, 0xe1, 0x99, 0x1d, 0xd5, 0x18, 0x19, 0xc7,
  0xc5, 0xe3, 0xd3, 0xe3, 0x5f, 0xb1, 0x57, 0xff, 0x5e, 0xcd, 0x23, 0xf5,
  0x11, 0x56, 0x62, 0x0c, 0x11, 0xbb, 0xdc, 0x51, 0xdc, 0x52, 0x66, 0xf2,
  0xea, 0xf5, 0x4a, 0x3b, 0x27, 0xa0, 0xcc, 0x5c, 0xee, 0x9f, 0x03, 0x4e,
  0x54, 0xe6, 0x20, 0x5f, 0xef, 0x9b, 0x46, 0xe8, 0xaf, 0x9d, 0x4c, 0xa5,
  0x5f, 0x04, 0xbc, 0x77, 0xba, 0xf4, 0xd1, 0xf4, 0x5a, 0x2b, 0x06, 0xef,
  0x15, 0x38, 0x67, 0x52, 0xd5, 0x33, 0x0a, 0x69, 0x30, 0x57, 0xa8, 0xf5,
  0xec, 0x1e, 0x0e, 0x44, 0x13, 0xb6, 0x57, 0xd7, 0x09, 0x47, 0xc0, 0x41,
  0x06, 0x22, 0x71, 0xee, 0xa9, 0x7b, 0x28, 0x5d, 0x37, 0xf0, 0x74, 0x3b,
  0x53, 0x4d, 0x40, 0xd4, 0x26, 0x1d, 0xd1, 0x99, 0xe4, 0x50, 0xb7, 0xb7,
  0xa8, 0x61, 0xfb, 0x30, 0xb3, 0x0f, 0x68, 0x10, 0x65, 0x59, 0x43, 0x04,
  0xa5, 0xc8, 0x2c, 0x2c, 0x55, 0xbf, 0x4f, 0x0b, 0x25, 0xb2, 0x3b, 0xc8,
  0xfc, 0x1e, 0x2b, 0x55, 0x46, 0x2e, 0xdd, 0x9b, 0x4b, 0x1d, 0xa7, 0x55,
  0x36, 0xb0, 0xb7, 0x33, 0xf0, 0xc7, 0xa4, 0xab, 0x07, 0x9c, 0x3a, 0xc1,
  0x40, 0x15, 0xd1, 0xfb, 0xeb, 0xb6, 0xd6, 0xa3, 0x15, 0x5a, 0xa0, 0xc5,
  0x1a, 0x2d, 0xe4, 0x9d, 0xd0, 0x4a, 0x4e, 0x9d, 0xeb, 0x33, 0x9e, 0x24,
  0xd9, 0x47, 0x9b, 0x26, 0xde, 0xe7, 0xd9, 0x4d, 0xce, 0xa8, 0x1b, 0xd6,
  0x19, 0x48, 0x4d, 0x12, 0xcb, 0xb5, 0xa7, 0x2f, 0xc1, 0xaf, 0xca, 0x2e,
  0x1a, 0xfd, 0x1f, 0x2f, 0xad, 0x5d, 0xd4, 0x2b, 0xee, 0x22, 0xb8, 0x2e,
  0x03, 0xe7, 0xa4, 0xbd, 0x32, 0xeb, 0xed, 0xb5, 0x49, 0xac, 0xee, 0x42,
  0x10, 0x1f, 0x20, 0xcc, 0xe5, 0xf6, 0x6d, 0xae, 0x48, 0x0c, 0x21, 0x28,
  0xed, 0x31, 0xa8, 0x0b, 0x34, 0xf6, 0x56, 0x36, 0x42, 0x4a, 0xbb, 0xa5,
  0x53, 0xfe, 0xdd, 0xf9, 0x20, 0xdc, 0x62, 0xd3, 0x27, 0x0f, 0x19, 0xb2,
  0x73, 0x05, 0xd2, 0xd5, 0xb0, 0x42, 0x45, 0x39, 0xad, 0x53, 0xaa, 0xf7,
  0x68, 0x72, 0xc6, 0xaa, 0x48, 0x53, 0xf3, 0xd9, 0xaf, 0x22, 0x2a, 0x54,
  0x97, 0x61, 0xfa, 0x17, 0x1b, 0xd7, 0xcd, 0xf7, 0x3e, 0xd6, 0xcd, 0xd3,
  0x9b, 0xdc, 0x15, 0xf7, 0xd9, 0x66, 0xa7, 0xa5, 0xc8, 0xfc, 0xa2, 0xee,
  0x9f, 0xf8, 0x44, 0xa1, 0xec, 0xa4, 0xd4, 0x30, 0xeb, 0xb4, 0x40, 0xe8,
  0xe6, 0x22, 0xfe, 0xa8, 0x11, 0xa4, 0x09, 0x57, 0x67, 0x4b, 0xe1, 0x47,
  0x49, 0xcc, 0xaf, 0x1a, 0x41, 0xf3, 0x5b, 0xe7, 0xba, 0xb0, 0xaa, 0xb1,
  0x4b, 0xd4, 0x0f, 0x20, 0x1d, 0x5a, 0xbe, 0xe4, 0xd7, 0xf4, 0x18, 0x53,
  0x27, 0x62, 0x37, 0xcc, 0xba, 0xcc, 0xdb, 0xa3, 0x66, 0xe6, 0x42, 0x56,
  0x42, 0x98, 0x9a, 0x3b, 0xaa, 0x9b, 0x41, 0xa2, 0x9f, 0xac, 0xa4, 0xe8,
  0xb6, 0x4c, 0xa2, 0x5f, 0x56, 0xe9, 0x5f, 0xab, 0x13, 0xd4, 0x5e, 0xed,
  0x16, 0xfd, 0xce, 0x0b, 0xee, 0x57, 0x4c, 0x50, 0x4f, 0x03, 0x2d, 0xff,
  0x3d, 0xbf, 0x49, 0xfb, 0x5c, 0x08, 0xea, 0xe7, 0xf7, 0x56, 0x65, 0x20,
  0xfa, 0xdd, 0xfe, 0x66, 0xe9, 0x9f, 0x1d, 0x52, 0x4a, 0xea, 0x18, 0xe3,
  0x26, 0xd4, 0xe9, 0x23, 0xee, 0x9a, 0xe6, 0x52, 0xf0, 0x32, 0xd7, 0xc0,
  0x2b, 0xbe, 0x0e, 0xb2, 0xa1, 0x9a, 0x0e, 0xe5, 0x40, 0x2c, 0x27, 0xc1,
  0x56, 0xa5, 0x40, 0x00, 0xca, 0xd1, 0x69, 0x59, 0xb5, 0xa9, 0x62, 0xe0,
  0xaf, 0x44, 0xdd, 0xb1, 0x9b, 0xd5, 0xa2, 0x0f, 0xf9, 0x01, 0xf7, 0x35,
  0x38, 0x0c, 0xee, 0xb7, 0xbf, 0x07, 0x68, 0x51, 0x51, 0xee, 0xe3, 0x26,
  0x4f, 0x49, 0x44, 0x0c, 0x27, 0x46, 0x19, 0xdb, 0x6a, 0x9b, 0xba, 0x13,
  0x55, 0xfb, 0x46, 0xa7, 0xc1, 0xd2, 0xd1, 0xd7, 0x4e, 0xf6, 0xf5, 0xab,
  0x34, 0xce, 0x19, 0x06, 0x11, 0x23, 0xa1, 0xfd, 0xe0, 0xdf, 0x01, 0x9f,
  0x4b, 0xd2, 0x1d, 0x9a, 0xda, 0x31, 0x63, 0xda, 0xba, 0xd5, 0xfa, 0xd0,
  0xee, 0xeb, 0x0e, 0xa9, 0x9d, 0x33, 0xc1, 0xdd, 0x5e, 0x24, 0x2a, 0x16,
  0x98, 0xf8, 0xcc, 0xb3, 0x16, 0x20, 0x42, 0x0e, 0xfe, 0x3d, 0x67, 0xe9,
  0x68, 0x53, 0xb5, 0xe9, 0x0f, 0xe0, 0x1c, 0x51, 0x1c, 0x37, 0x9c, 0x4b,
  0x3d, 0x4d, 0xf6, 0xef, 0xd8, 0xb2, 0x22, 0x28, 0xf5, 0x28, 0xea, 0xa0,
  0x45, 0x5b, 0x97, 0xc3, 0x11, 0x24, 0xc6, 0x5a, 0xb2, 0x5a, 0x22, 0x13,
  0x11, 0x05, 0xd6, 0xb2, 0x18, 0x42, 0xcf, 0xb7, 0x21, 0x35, 0xea, 0x05,
  0xc9, 0x0c, 0x5f, 0x1f, 0x15, 0x0f, 0x14, 0x11, 0x12, 0xa5, 0x64, 0x62,
  0xbb, 0xa7, 0xcc, 0x97, 0x25, 0x49, 0xc7, 0x13, 0x9d, 0xc4, 0xe5, 0x9b,
  0xa7, 0xce, 0xd7, 0xbc, 0x3d, 0x54, 0x53, 0x4b, 0x41, 0xf4, 0xe0, 0xe8,
  0xa0, 0xbc, 0xbe, 0x0a, 0xf3, 0xab, 0x63, 0xaf, 0xef, 0x98, 0xf8, 0x1d,
  0xa3, 0xa2, 0xe2, 0x47, 0xa2, 0xcc, 0x03, 0xe8, 0x1c, 0xa7, 0xaf, 0x38,
  0xb2, 0xf9, 0x8f, 0x33, 0xad, 0x02, 0xab, 0x5f, 0x03, 0xcc, 0xd3, 0x4c,
  0x50, 0xcf, 0x00, 0x10, 0xe9, 0xf5, 0xe0, 0x4d, 0x9d, 0x8c, 0x34, 0x2e,
  0xbc, 0x49, 0xfb, 0x27, 0x23, 0x33, 0x99, 0x29, 0xcf, 0x55, 0x45, 0xbe,
  0xc0, 0xb5, 0x24, 0x01, 0x3b, 0x11, 0x13, 0xb9, 0xad, 0x57, 0xe9, 0xf5,
  0xdc, 0xd9, 0x21, 0xdf, 0xd1, 0x05, 0x29, 0xbf, 0x37, 0x56, 0x9e, 0xe3,
  0x41, 0x1c, 0x5a, 0x54, 0x30, 0xcf, 0xcf, 0x66, 0x26, 0x39, 0x97, 0xf9,
  0xaa, 0x1c, 0xc0, 0x46, 0xc5, 0x08, 0x0e, 0x24, 0xb6, 0xdd, 0xd2, 0xf1,
  0xb8, 0x4d, 0x1e, 0x07, 0x3f, 0x49, 0x5a, 0x14, 0xa0, 0x22, 0xf3, 0xa0,
  0xe3, 0xbd, 0x60, 0x09, 0xca, 0x5f, 0x11, 0x69, 0x30, 0xb3, 0xdd, 0xa2,
  0xb2, 0x4f, 0xbe, 0x99, 0x26, 0x56, 0xff, 0x33, 0xd9, 0x04, 0x1b, 0xf7,
  0x45, 0xa0, 0xd5, 0xfa, 0x5a, 0xb7, 0xa4, 0x01, 0x6f, 0xdc, 0x48, 0x5e,
  0xc0, 0x5d, 0xa5, 0x16, 0xae, 0x35, 0x2f, 0xe2, 0xe1, 0x28, 0x4d, 0xe9,
  0x0d, 0xa1, 0x60, 0xa2, 0xda, 0xb2, 0xf3, 0xf5, 0x47, 0xed, 0x98, 0xaf,
  0xf9, 0xa1, 0x49, 0xd6, 0xce, 0xf7, 0x1c, 0x5b, 0x07, 0xe5, 0x66, 0x58,
  0xef, 0xfd, 0x2b, 0x22, 0x6f, 0xbb, 0x58, 0xc8, 0xff, 0x0a, 0xac, 0x4e,
  0x11, 0x1c, 0x3a, 0xb0, 0xa2, 0x28, 0x08, 0xfe, 0x5a, 0xbd, 0xb3, 0x31,
  0x57, 0xc1, 0xea, 0xd0, 0x04, 0xd7, 0xbc, 0x9e, 0xa4, 0x98, 0xa6, 0xbd,
  0x4f, 0x32, 0x56, 0x98, 0x43, 0x16, 0x67, 0xfe, 0x0b, 0xdc, 0xdc, 0xe0,
  0xc2, 0xe9, 0x48, 0x99, 0x66, 0xec, 0xd2, 0xe2, 0xd1, 0x31, 0x69, 0x22,
  0x39, 0x5d, 0xc8, 0xdf, 0xd5, 0x5f, 0xff, 0x39, 0xb8, 0xd4, 0x5e, 0x3d,
  0xac, 0xd2, 0xc3, 0x9c, 0xaf, 0xb7, 0xba, 0xf5, 0x56, 0xc7, 0x4c, 0xe2,
  0x61, 0xb0, 0xcf, 0x5b, 0x5b, 0x60, 0xd8, 0xe6, 0xde, 0x01, 0x38, 0xa5,
  0x02, 0x97, 0x22, 0x1b, 0xae, 0x27, 0x20, 0x49, 0x0e, 0x5c, 0xd7, 0x16,
  0xf3, 0x67, 0x09, 0xcf, 0xef, 0xd0, 0x97, 0x0f, 0x3b, 0x62, 0xdd, 0xbb,
  0xfb, 0xac, 0x33, 0x49, 0x07, 0xa8, 0x56, 0xdf, 0x1a, 0xd3, 0x04, 0x5d,
  0x31, 0xde, 0xb6, 0xce, 0xf7, 0x46, 0xb9, 0xf9, 0x2c, 0xac, 0x0e, 0x5a,
  0xb0, 0xe1, 0xa9, 0xba, 0x62, 0xe1, 0x32, 0x30, 0x1c, 0x66, 0xe1, 0x46,
  0xac, 0x0e, 0xa8, 0x0d, 0xea, 0xd3, 0x68, 0xe0, 0x5c, 0xbb, 0xdd, 0xe8,
  0xd1, 0xc2, 0xba, 0xc4, 0x19, 0x48, 0xf8, 0x9e, 0x26, 0x02, 0xd4, 0x9e,
  0xae, 0x1c, 0xda, 0x4b, 0x68, 0xa1, 0xab, 0x36, 0x1a, 0xa8, 0x5e, 0x97,
  0xd7, 0x1b, 0xfd, 0xaa, 0x50, 0x35, 0x17, 0x36, 0xcd, 0x51, 0x11, 0xb9,
  0xc6, 0xef, 0xd2, 0x6a, 0x9f, 0x35, 0xd0, 0xb4, 0xea, 0xd3, 0x53, 0x24,
  0xac, 0x38, 0xc4, 0x98, 0x15, 0xf4, 0xdd, 0x98, 0x42, 0xe3, 0xfb, 0xaa,
  0xed, 0x0a, 0x3c, 0x15, 0x0d, 0x99, 0x3a, 0x35, 0x45, 0x99, 0x52, 0xef,
  0xcb, 0xb4, 0x69, 0x14, 0x2d, 0xb0, 0xe9, 0xd8, 0x61, 0x21, 0xdc, 0x3e,
  0x9e, 0xcd, 0x49, 0xd3, 0xff, 0xdd, 0x15, 0xbe, 0xf2, 0x9a, 0xa7, 0xb3,
  0xf8, 0x0a, 0x33, 0x5e, 0x9b, 0x38, 0x35, 0xb5, 0x2f, 0xe9, 0x39, 0x49,
  0x5e, 0x20, 0xce, 0x9e, 0x99, 0xae, 0x39, 0xaa, 0x4c, 0x9d, 0x3c, 0x97,
  0xaa, 0xc8, 0xac, 0x0f, 0xb3, 0xd9, 0x0b, 0x0b, 0x99, 0x10, 0x26, 0x9c,
  0x52, 0xd7, 0x3b, 0x02, 0x8f, 0x5b, 0xec, 0xbd, 0x18, 0x22, 0x33, 0xf0,
  0x9e, 0x1e, 0x19, 0x06, 0x37, 0x5f, 0xa4, 0x11, 0x3f, 0xdd, 0xcf, 0xc8,
  0x49, 0xbc, 0xcf, 0x59, 0x5c, 0x1b, 0xf6, 0xf3, 0xe9, 0x2f, 0xd2, 0xf6,
  0x07, 0x97, 0xaf, 0x1c, 0x18, 0x9d, 0xd3, 0x03, 0x06, 0x27, 0xd0, 0xc0,
  0x65, 0x3e, 0xdd, 0x68, 0xb9, 0xa1, 0x1b, 0xa9, 0xef, 0x03, 0x67, 0x5e,
  0x48, 0xdf, 0xa3, 0xa6, 0x3a, 0x5b, 0xd0, 0xf4, 0x96, 0xdd, 0xc7, 0xcd,
  0x99, 0x9c, 0xa0, 0x4f, 0x5e, 0xe0, 0x5c, 0xf8, 0xd8, 0xe5, 0xd3, 0x5b,
  0x07, 0x46, 0x07, 0x4f, 0xde, 0x33, 0xc8, 0xc0, 0xfa, 0x48, 0xdc, 0xbc,
  0x9d, 0xb0, 0x9d, 0x65, 0x16, 0x01, 0xc7, 0x2e, 0x47, 0xd7, 0x2d, 0x44,
  0x2b, 0x61, 0x2c, 0xfa, 0x42, 0x3e, 0xaf, 0xac, 0xfa, 0x2b, 0xc4, 0x36,
  0x18, 0xfb, 0x16, 0xd4, 0x65, 0xb4, 0xad, 0x1f, 0x00, 0x53, 0x44, 0xe0,
  0xf2, 0xd7, 0xb8, 0xda, 0x9d, 0xcd, 0x69, 0x62, 0x4e, 0x0d, 0xdb, 0x45,
  0x2d, 0x0a, 0xac, 0x38, 0x59, 0x0b, 0x61, 0xba, 0x9a, 0x10, 0xf7, 0x0c,
  0xe1, 0xc1, 0x1a, 0xc2, 0xa9, 0xfa, 0x46, 0xbc, 0xd0, 0x18, 0xee, 0x1b,
  0x43, 0xe2, 0xba, 0x31, 0xbd, 0x57, 0x4b, 0x46, 0xaf, 0x22, 0x5f, 0x0c,
  0xd2, 0x55, 0x07, 0x27, 0x5c, 0x11, 0xf4, 0xda, 0xbe, 0x35, 0x27, 0x39,
  0x9a, 0x4b, 0x03, 0xd5, 0x48, 0x58, 0x65, 0x62, 0xf4, 0xa8, 0x9c, 0x27,
  0x38, 0x3c, 0xdf, 0x4d, 0x66, 0x49, 0xc1, 0xf7, 0xa0, 0xfa, 0xa3, 0x32,
  0xb1, 0xdc, 0xf3, 0x3d, 0xba, 0x36, 0x06, 0x43, 0xb2, 0xaa, 0xb2, 0x60,
  0xd8, 0xd8, 0xbc, 0x40, 0x61, 0x44, 0xf9, 0xa8, 0xf8, 0x0b, 0xeb, 0xf8,
  0x30, 0x06, 0x5c, 0x61, 0xb5, 0xd0, 0x66, 0x18, 0x39, 0x68, 0x9c, 0x99,
  0xbf, 0xd8, 0xc0, 0x08, 0xcc, 0x48, 0xd7, 0x9a, 0xa0, 0xfd, 0x56, 0x52,
  0xe2, 0x1f, 0xf5, 0x9e, 0xb3, 0x2f, 0x94, 0xb4, 0x1d, 0xe8, 0xe4, 0xb3,
  0x3f, 0x9e, 0xe3, 0x50, 0x00, 0xf7, 0x32, 0xc5, 0x3b, 0x07, 0xb0, 0xc3,
  0xe5, 0x59, 0xe3, 0x5d, 0x40, 0xe2, 0xff, 0x2a, 0xa7, 0xe5, 0x52, 0xbe,
  0x12, 0x46, 0xbe, 0x62, 0xa0, 0x12, 0x28, 0xdb, 0xaf, 0xa4, 0xd5, 0x12,
  0xe8, 0x08, 0xcd, 0x4f, 0xdb, 0x1b, 0x51, 0x1f, 0x63, 0xcf, 0x12, 0x06,
  0xe2, 0xcc, 0x63, 0x50, 0x53, 0x45, 0xd8, 0xeb, 0xd9, 0xe0, 0x01, 0xd5,
  0xac, 0xe7, 0x54, 0xd7, 0x1f, 0x61, 0xdb, 0x09, 0x04, 0xe6, 0xa4, 0xea,
  0x5b, 0xbe, 0xb3, 0x19, 0xfb, 0x36, 0x98, 0xbf, 0x1a, 0xf0, 0xb4, 0xe4,
  0xa6, 0xcc, 0x2e, 0xbf, 0xa6, 0xfe, 0xff, 0xff, 0x04, 0x00, 0x00, 0x00,
  0x00, 0x01, 0x00, 0x00, 0x00, 0x00, 0x00, 0x00, 0xf6, 0x37, 0x00, 0x00,
  0xdb, 0x39, 0x00, 0x00, 0x00, 0x00, 0x00, 0x00, 0x00, 0x00, 0x00, 0x00,
  0x00, 0x00, 0x00, 0x00, 0x00, 0x00, 0x00, 0x00, 0xad, 0xe7, 0xff, 0xff,
  0xef, 0x37, 0x00, 0x00, 0x00, 0x00, 0x00, 0x00, 0xec, 0x36, 0x00, 0x00,
  0xd2, 0x36, 0x00, 0x00, 0xf2, 0x37, 0x00, 0x00, 0x0f, 0xe3, 0xff, 0xff,
  0x00, 0x00, 0x00, 0x00, 0x00, 0x00, 0x00, 0x00, 0x3a, 0x37, 0x00, 0x00,
  0x00, 0x00, 0x00, 0x00, 0x89, 0x38, 0x00, 0x00, 0xd9, 0xcf, 0xff, 0xff,
  0x00, 0x00, 0x00, 0x00, 0x00, 0x00, 0x00, 0x00, 0x00, 0x00, 0x00, 0x00,
  0x00, 0x00, 0x00, 0x00, 0xb6, 0x38, 0x00, 0x00, 0xb2, 0xcc, 0xff, 0xff,
  0x00, 0x00, 0x00, 0x00, 0x00, 0x00, 0x00, 0x00, 0x00, 0x00, 0x00, 0x00,
  0x00, 0x00, 0x00, 0x00, 0x00, 0x00, 0x00, 0x00, 0x00, 0x00, 0x00, 0x00,
  0x00, 0x00, 0x00, 0x00, 0xec, 0x36, 0x00, 0x00, 0x05, 0xfc, 0xff, 0xff,
  0x0e, 0x37, 0x00, 0x00, 0x15, 0xf7, 0xff, 0xff, 0xc4, 0x3b, 0x00, 0x00,
  0x00, 0x00, 0x00, 0x00, 0x00, 0x00, 0x00, 0x00, 0x00, 0x00, 0x00, 0x00,
  0x15, 0x37, 0x00, 0x00, 0x89, 0xe3, 0xff, 0xff, 0x76, 0xdf, 0xff, 0xff,
  0x60, 0x39, 0x00, 0x00, 0x00, 0x00, 0x00, 0x00, 0x00, 0x00, 0x00, 0x00,
  0x00, 0x00, 0x00, 0x00, 0x00, 0x00, 0x00, 0x00, 0x00, 0x00, 0x00, 0x00,
  0x00, 0x00, 0x00, 0x00, 0xb3, 0xe5, 0xff, 0xff, 0x00, 0x00, 0x00, 0x00,
  0x37, 0x28, 0x00, 0x00, 0x00, 0x00, 0x00, 0x00, 0x00, 0x00, 0x00, 0x00,
  0x00, 0x00, 0x00, 0x00, 0x00, 0x00, 0x00, 0x00, 0xc8, 0xdd, 0xff, 0xff,
  0x00, 0x00, 0x00, 0x00, 0x00, 0x00, 0x00, 0x00, 0x5e, 0xdf, 0xff, 0xff,
  0x05, 0xfc, 0xff, 0xff, 0x00, 0x00, 0x00, 0x00, 0xb2, 0xff, 0xff, 0xff,
  0x04, 0x00, 0x00, 0x00, 0x40, 0x00, 0x00, 0x00, 0x2a, 0x3d, 0x24, 0xcd,
  0x2e, 0xcc, 0x70, 0xba, 0x3f, 0x93, 0x7f, 0x7f, 0x3c, 0xcc, 0x20, 0x6a,
  0x59, 0xf5, 0x35, 0xf9, 0x1c, 0x97, 0x42, 0x22, 0x36, 0xe6, 0xf0, 0x59,
  0xf7, 0xfe, 0x33, 0x23, 0x00, 0x76, 0xca, 0x68, 0xdf, 0x20, 0xd8, 0x13,
  0xc1, 0x5e, 0xb4, 0xf6, 0x33, 0x0e, 0xe8, 0xa3, 0x4b, 0xc7, 0x12, 0x9c,
  0x54, 0x61, 0x59, 0x04, 0x18, 0x12, 0xef, 0x28, 0xc1, 0xe7, 0xae, 0x0c,
  0x00, 0x00, 0x06, 0x00, 0x08, 0x00, 0x04, 0x00, 0x06, 0x00, 0x00, 0x00,
  0x04, 0x00, 0x00, 0x00, 0x04, 0x00, 0x00, 0x00, 0x1e, 0x1e, 0x00, 0x00,
  0x58, 0xf8, 0xff, 0xff, 0x5c, 0xf8, 0xff, 0xff, 0x0f, 0x00, 0x00, 0x00,
  0x4d, 0x4c, 0x49, 0x52, 0x20, 0x43, 0x6f, 0x6e, 0x76, 0x65, 0x72, 0x74,
  0x65, 0x64, 0x2e, 0x00, 0x01, 0x00, 0x00, 0x00, 0x14, 0x00, 0x00, 0x00,
  0x00, 0x00, 0x0e, 0x00, 0x18, 0x00, 0x14, 0x00, 0x10, 0x00, 0x0c, 0x00,
  0x08, 0x00, 0x04, 0x00, 0x0e, 0x00, 0x00, 0x00, 0x14, 0x00, 0x00, 0x00,
  0x1c, 0x00, 0x00, 0x00, 0x40, 0x01, 0x00, 0x00, 0x44, 0x01, 0x00, 0x00,
  0x48, 0x01, 0x00, 0x00, 0x04, 0x00, 0x00, 0x00, 0x6d, 0x61, 0x69, 0x6e,
  0x00, 0x00, 0x00, 0x00, 0x05, 0x00, 0x00, 0x00, 0x08, 0x01, 0x00, 0x00,
  0xb8, 0x00, 0x00, 0x00, 0x6c, 0x00, 0x00, 0x00, 0x34, 0x00, 0x00, 0x00,
  0x10, 0x00, 0x00, 0x00, 0x00, 0x00, 0x0a, 0x00, 0x10, 0x00, 0x0c, 0x00,
  0x08, 0x00, 0x04, 0x00, 0x0a, 0x00, 0x00, 0x00, 0x0c, 0x00, 0x00, 0x00,
  0x10, 0x00, 0x00, 0x00, 0x02, 0x00, 0x00, 0x00, 0x01, 0x00, 0x00, 0x00,
  0x0b, 0x00, 0x00, 0x00, 0x01, 0x00, 0x00, 0x00, 0x0a, 0x00, 0x00, 0x00,
  0x92, 0xff, 0xff, 0xff, 0x14, 0x00, 0x00, 0x00, 0x00, 0x00, 0x00, 0x08,
  0x10, 0x00, 0x00, 0x00, 0x14, 0x00, 0x00, 0x00, 0x01, 0x00, 0x00, 0x00,
  0x0c, 0xf9, 0xff, 0xff, 0x01, 0x00, 0x00, 0x00, 0x0a, 0x00, 0x00, 0x00,
  0x03, 0x00, 0x00, 0x00, 0x09, 0x00, 0x00, 0x00, 0x02, 0x00, 0x00, 0x00,
  0x01, 0x00, 0x00, 0x00, 0xc6, 0xff, 0xff, 0xff, 0x14, 0x00, 0x00, 0x00,
  0x00, 0x00, 0x00, 0x08, 0x14, 0x00, 0x00, 0x00, 0x18, 0x00, 0x00, 0x00,
  0x01, 0x00, 0x00, 0x00, 0xb6, 0xff, 0xff, 0xff, 0x00, 0x00, 0x00, 0x01,
  0x01, 0x00, 0x00, 0x00, 0x09, 0x00, 0x00, 0x00, 0x03, 0x00, 0x00, 0x00,
  0x08, 0x00, 0x00, 0x00, 0x04, 0x00, 0x00, 0x00, 0x03, 0x00, 0x00, 0x00,
  0x00, 0x00, 0x0e, 0x00, 0x1a, 0x00, 0x14, 0x00, 0x10, 0x00, 0x0c, 0x00,
  0x0b, 0x00, 0x04, 0x00, 0x0e, 0x00, 0x00, 0x00, 0x1c, 0x00, 0x00, 0x00,
  0x00, 0x00, 0x00, 0x08, 0x1c, 0x00, 0x00, 0x00, 0x20, 0x00, 0x00, 0x00,
  0x01, 0x00, 0x00, 0x00, 0x00, 0x00, 0x06, 0x00, 0x08, 0x00, 0x07, 0x00,
  0x06, 0x00, 0x00, 0x00, 0x00, 0x00, 0x00, 0x01, 0x01, 0x00, 0x00, 0x00,
  0x08, 0x00, 0x00, 0x00, 0x03, 0x00, 0x00, 0x00, 0x07, 0x00, 0x00, 0x00,
  0x06, 0x00, 0x00, 0x00, 0x05, 0x00, 0x00, 0x00, 0x00, 0x00, 0x0a, 0x00,
  0x0c, 0x00, 0x00, 0x00, 0x08, 0x00, 0x04, 0x00, 0x0a, 0x00, 0x00, 0x00,
  0x08, 0x00, 0x00, 0x00, 0x0c, 0x00, 0x00, 0x00, 0x01, 0x00, 0x00, 0x00,
  0x07, 0x00, 0x00, 0x00, 0x01, 0x00, 0x00, 0x00, 0x00, 0x00, 0x00, 0x00,
  0x01, 0x00, 0x00, 0x00, 0x0b, 0x00, 0x00, 0x00, 0x01, 0x00, 0x00, 0x00,
  0x00, 0x00, 0x00, 0x00, 0x0c, 0x00, 0x00, 0x00, 0xec, 0x05, 0x00, 0x00,
  0x48, 0x05, 0x00, 0x00, 0xc0, 0x04, 0x00, 0x00, 0x44, 0x04, 0x00, 0x00,
  0xd0, 0x03, 0x00, 0x00, 0x54, 0x03, 0x00, 0x00, 0xe0, 0x02, 0x00, 0x00,
  0x6c, 0x02, 0x00, 0x00, 0x98, 0x01, 0x00, 0x00, 0xdc, 0x00, 0x00, 0x00,
  0x60, 0x00, 0x00, 0x00, 0x04, 0x00, 0x00, 0x00, 0x5a, 0xfa, 0xff, 0xff,
  0x00, 0x00, 0x00, 0x01, 0x14, 0x00, 0x00, 0x00, 0x1c, 0x00, 0x00, 0x00,
  0x1c, 0x00, 0x00, 0x00, 0x0c, 0x00, 0x00, 0x00, 0x34, 0x00, 0x00, 0x00,
  0x02, 0x00, 0x00, 0x00, 0xff, 0xff, 0xff, 0xff, 0x01, 0x00, 0x00, 0x00,
  0x44, 0xfa, 0xff, 0xff, 0x19, 0x00, 0x00, 0x00, 0x53, 0x74, 0x61, 0x74,
  0x65, 0x66, 0x75, 0x6c, 0x50, 0x61, 0x72, 0x74, 0x69, 0x74, 0x69, 0x6f,
  0x6e, 0x65, 0x64, 0x43, 0x61, 0x6c, 0x6c, 0x3a, 0x30, 0x00, 0x00, 0x00,
  0x02, 0x00, 0x00, 0x00, 0x01, 0x00, 0x00, 0x00, 0x01, 0x00, 0x00, 0x00,
  0x16, 0xfe, 0xff, 0xff, 0x00, 0x00, 0x00, 0x01, 0x18, 0x00, 0x00, 0x00,
  0x20, 0x00, 0x00, 0x00, 0x3c, 0x00, 0x00, 0x00, 0x0b, 0x00, 0x00, 0x00,
  0x00, 0x00, 0x00, 0x09, 0x50, 0x00, 0x00, 0x00, 0x02, 0x00, 0x00, 0x00,
  0xff, 0xff, 0xff, 0xff, 0x01, 0x00, 0x00, 0x00, 0x4c, 0xfb, 0xff, 0xff,
  0x08, 0x00, 0x00, 0x00, 0x10, 0x00, 0x00, 0x00, 0x01, 0x00, 0x00, 0x00,
  0x80, 0xff, 0xff, 0xff, 0xff, 0xff, 0xff, 0xff, 0x01, 0x00, 0x00, 0x00,
  0x65, 0x89, 0x9d, 0x3b, 0x1a, 0x00, 0x00, 0x00, 0x53, 0x74, 0x61, 0x74,
  0x65, 0x66, 0x75, 0x6c, 0x50, 0x61, 0x72, 0x74, 0x69, 0x74, 0x69, 0x6f,
  0x6e, 0x65, 0x64, 0x43, 0x61, 0x6c, 0x6c, 0x3a, 0x30, 0x31, 0x00, 0x00,
  0x02, 0x00, 0x00, 0x00, 0x01, 0x00, 0x00, 0x00, 0x01, 0x00, 0x00, 0x00,
  0x8e, 0xfe, 0xff, 0xff, 0x00, 0x00, 0x00, 0x01, 0x18, 0x00, 0x00, 0x00,
  0x20, 0x00, 0x00, 0x00, 0x40, 0x00, 0x00, 0x00, 0x0a, 0x00, 0x00, 0x00,
  0x00, 0x00, 0x00, 0x09, 0x90, 0x00, 0x00, 0x00, 0x02, 0x00, 0x00, 0x00,
  0xff, 0xff, 0xff, 0xff, 0x40, 0x00, 0x00, 0x00, 0xc4, 0xfb, 0xff, 0xff,
  0x08, 0x00, 0x00, 0x00, 0x14, 0x00, 0x00, 0x00, 0x01, 0x00, 0x00, 0x00,
  0x80, 0xff, 0xff, 0xff, 0xff, 0xff, 0xff, 0xff, 0x00, 0x00, 0x00, 0x00,
  0x01, 0x00, 0x00, 0x00, 0xdf, 0xaa, 0x08, 0x3b, 0x55, 0x00, 0x00, 0x00,
  0x73, 0x65, 0x71, 0x75, 0x65, 0x6e, 0x74, 0x69, 0x61, 0x6c, 0x5f, 0x36,
  0x2f, 0x64, 0x65, 0x6e, 0x73, 0x65, 0x5f, 0x31, 0x39, 0x2f, 0x4d, 0x61,
  0x74, 0x4d, 0x75, 0x6c, 0x3b, 0x73, 0x65, 0x71, 0x75, 0x65, 0x6e, 0x74,
  0x69, 0x61, 0x6c, 0x5f, 0x36, 0x2f, 0x64, 0x65, 0x6e, 0x73, 0x65, 0x5f,
  0x31, 0x39, 0x2f, 0x52, 0x65, 0x6c, 0x75, 0x3b, 0x73, 0x65, 0x71, 0x75,
  0x65, 0x6e, 0x74, 0x69, 0x61, 0x6c, 0x5f, 0x36, 0x2f, 0x64, 0x65, 0x6e,
  0x73, 0x65, 0x5f, 0x31, 0x39, 0x2f, 0x42, 0x69, 0x61, 0x73, 0x41, 0x64,
  0x64, 0x00, 0x00, 0x00, 0x02, 0x00, 0x00, 0x00, 0x01, 0x00, 0x00, 0x00,
  0x40, 0x00, 0x00, 0x00, 0x46, 0xff, 0xff, 0xff, 0x00, 0x00, 0x00, 0x01,
  0x18, 0x00, 0x00, 0x00, 0x20, 0x00, 0x00, 0x00, 0x40, 0x00, 0x00, 0x00,
  0x09, 0x00, 0x00, 0x00, 0x00, 0x00, 0x00, 0x09, 0x90, 0x00, 0x00, 0x00,
  0x02, 0x00, 0x00, 0x00, 0xff, 0xff, 0xff, 0xff, 0x40, 0x00, 0x00, 0x00,
  0x7c, 0xfc, 0xff, 0xff, 0x08, 0x00, 0x00, 0x00, 0x14, 0x00, 0x00, 0x00,
  0x01, 0x00, 0x00, 0x00, 0x80, 0xff, 0xff, 0xff, 0xff, 0xff, 0xff, 0xff,
  0x00, 0x00, 0x00, 0x00, 0x01, 0x00, 0x00, 0x00, 0xd5, 0x6e, 0xc7, 0x3a,
  0x55, 0x00, 0x00, 0x00, 0x73, 0x65, 0x71, 0x75, 0x65, 0x6e, 0x74, 0x69,
  0x61, 0x6c, 0x5f, 0x36, 0x2f, 0x64, 0x65, 0x6e, 0x73, 0x65, 0x5f, 0x31,
  0x38, 0x2f, 0x4d, 0x61, 0x74, 0x4d, 0x75, 0x6c, 0x3b, 0x73, 0x65, 0x71,
  0x75, 0x65, 0x6e, 0x74, 0x69, 0x61, 0x6c, 0x5f, 0x36, 0x2f, 0x64, 0x65,
  0x6e, 0x73, 0x65, 0x5f, 0x31, 0x38, 0x2f, 0x52, 0x65, 0x6c, 0x75, 0x3b,
  0x73, 0x65, 0x71, 0x75, 0x65, 0x6e, 0x74, 0x69, 0x61, 0x6c, 0x5f, 0x36,
  0x2f, 0x64, 0x65, 0x6e, 0x73, 0x65, 0x5f, 0x31, 0x38, 0x2f, 0x42, 0x69,
  0x61, 0x73, 0x41, 0x64, 0x64, 0x00, 0x00, 0x00, 0x02, 0x00, 0x00, 0x00,
  0x01, 0x00, 0x00, 0x00, 0x40, 0x00, 0x00, 0x00, 0x00, 0x00, 0x16, 0x00,
  0x20, 0x00, 0x1c, 0x00, 0x1b, 0x00, 0x14, 0x00, 0x10, 0x00, 0x0c, 0x00,
  0x00, 0x00, 0x00, 0x00, 0x08, 0x00, 0x07, 0x00, 0x16, 0x00, 0x00, 0x00,
  0x00, 0x00, 0x00, 0x01, 0x18, 0x00, 0x00, 0x00, 0x20, 0x00, 0x00, 0x00,
  0x40, 0x00, 0x00, 0x00, 0x08, 0x00, 0x00, 0x00, 0x00, 0x00, 0x00, 0x09,
  0x48, 0x00, 0x00, 0x00, 0x02, 0x00, 0x00, 0x00, 0xff, 0xff, 0xff, 0xff,
  0x01, 0x00, 0x00, 0x00, 0x4c, 0xfd, 0xff, 0xff, 0x08, 0x00, 0x00, 0x00,
  0x14, 0x00, 0x00, 0x00, 0x01, 0x00, 0x00, 0x00, 0x80, 0xff, 0xff, 0xff,
  0xff, 0xff, 0xff, 0xff, 0x00, 0x00, 0x00, 0x00, 0x01, 0x00, 0x00, 0x00,
  0xdc, 0x7b, 0x80, 0x3b, 0x0c, 0x00, 0x00, 0x00, 0x74, 0x66, 0x6c, 0x2e,
  0x71, 0x75, 0x61, 0x6e, 0x74, 0x69, 0x7a, 0x65, 0x00, 0x00, 0x00, 0x00,
  0x02, 0x00, 0x00, 0x00, 0x01, 0x00, 0x00, 0x00, 0x01, 0x00, 0x00, 0x00,
  0xc2, 0xfd, 0xff, 0xff, 0x00, 0x00, 0x00, 0x01, 0x14, 0x00, 0x00, 0x00,
  0x34, 0x00, 0x00, 0x00, 0x07, 0x00, 0x00, 0x00, 0x00, 0x00, 0x00, 0x09,
  0x4c, 0x00, 0x00, 0x00, 0xac, 0xfd, 0xff, 0xff, 0x08, 0x00, 0x00, 0x00,
  0x14, 0x00, 0x00, 0x00, 0x01, 0x00, 0x00, 0x00, 0x00, 0x00, 0x00, 0x00,
  0x00, 0x00, 0x00, 0x00, 0x00, 0x00, 0x00, 0x00, 0x01, 0x00, 0x00, 0x00,
  0x31, 0x41, 0x2f, 0x3b, 0x1c, 0x00, 0x00, 0x00, 0x73, 0x65, 0x71, 0x75,
  0x65, 0x6e, 0x74, 0x69, 0x61, 0x6c, 0x5f, 0x36, 0x2f, 0x64, 0x65, 0x6e,
  0x73, 0x65, 0x5f, 0x31, 0x38, 0x2f, 0x4d, 0x61, 0x74, 0x4d, 0x75, 0x6c,
  0x00, 0x00, 0x00, 0x00, 0x02, 0x00, 0x00, 0x00, 0x40, 0x00, 0x00, 0x00,
  0x01, 0x00, 0x00, 0x00, 0x32, 0xfe, 0xff, 0xff, 0x00, 0x00, 0x00, 0x01,
  0x14, 0x00, 0x00, 0x00, 0x30, 0x00, 0x00, 0x00, 0x06, 0x00, 0x00, 0x00,
  0x00, 0x00, 0x00, 0x02, 0x58, 0x00, 0x00, 0x00, 0x1c, 0xfe, 0xff, 0xff,
  0x08, 0x00, 0x00, 0x00, 0x10, 0x00, 0x00, 0x00, 0x01, 0x00, 0x00, 0x00,
  0x00, 0x00, 0x00, 0x00, 0x00, 0x00, 0x00, 0x00, 0x01, 0x00, 0x00, 0x00,
  0xc7, 0xea, 0x2f, 0x37, 0x2c, 0x00, 0x00, 0x00, 0x73, 0x65, 0x71, 0x75,
  0x65, 0x6e, 0x74, 0x69, 0x61, 0x6c, 0x5f, 0x36, 0x2f, 0x64, 0x65, 0x6e,
  0x73, 0x65, 0x5f, 0x31, 0x38, 0x2f, 0x42, 0x69, 0x61, 0x73, 0x41, 0x64,
  0x64, 0x2f, 0x52, 0x65, 0x61, 0x64, 0x56, 0x61, 0x72, 0x69, 0x61, 0x62,
  0x6c, 0x65, 0x4f, 0x70, 0x00, 0x00, 0x00, 0x00, 0x01, 0x00, 0x00, 0x00,
  0x40, 0x00, 0x00, 0x00, 0xaa, 0xfe, 0xff, 0xff, 0x00, 0x00, 0x00, 0x01,
  0x14, 0x00, 0x00, 0x00, 0x34, 0x00, 0x00, 0x00, 0x05, 0x00, 0x00, 0x00,
  0x00, 0x00, 0x00, 0x09, 0x4c, 0x00, 0x00, 0x00, 0x94, 0xfe, 0xff, 0xff,
  0x08, 0x00, 0x00, 0x00, 0x14, 0x00, 0x00, 0x00, 0x01, 0x00, 0x00, 0x00,
  0x00, 0x00, 0x00, 0x00, 0x00, 0x00, 0x00, 0x00, 0x00, 0x00, 0x00, 0x00,
  0x01, 0x00, 0x00, 0x00, 0x8f, 0x9f, 0x05, 0x3b, 0x1c, 0x00, 0x00, 0x00,
  0x73, 0x65, 0x71, 0x75, 0x65, 0x6e, 0x74, 0x69, 0x61, 0x6c, 0x5f, 0x36,
  0x2f, 0x64, 0x65, 0x6e, 0x73, 0x65, 0x5f, 0x31, 0x39, 0x2f, 0x4d, 0x61,
  0x74, 0x4d, 0x75, 0x6c, 0x00, 0x00, 0x00, 0x00, 0x02, 0x00, 0x00, 0x00,
  0x40, 0x00, 0x00, 0x00, 0x40, 0x00, 0x00, 0x00, 0x1a, 0xff, 0xff, 0xff,
  0x00, 0x00, 0x00, 0x01, 0x14, 0x00, 0x00, 0x00, 0x30, 0x00, 0x00, 0x00,
  0x04, 0x00, 0x00, 0x00, 0x00, 0x00, 0x00, 0x02, 0x58, 0x00, 0x00, 0x00,
  0x04, 0xff, 0xff, 0xff, 0x08, 0x00, 0x00, 0x00, 0x10, 0x00, 0x00, 0x00,
  0x01, 0x00, 0x00, 0x00, 0x00, 0x00, 0x00, 0x00, 0x00, 0x00, 0x00, 0x00,
  0x01, 0x00, 0x00, 0x00, 0xc4, 0x31, 0x50, 0x36, 0x2c, 0x00, 0x00, 0x00,
  0x73, 0x65, 0x71, 0x75, 0x65, 0x6e, 0x74, 0x69, 0x61, 0x6c, 0x5f, 0x36,
  0x2f, 0x64, 0x65, 0x6e, 0x73, 0x65, 0x5f, 0x31, 0x39, 0x2f, 0x42, 0x69,
  0x61, 0x73, 0x41, 0x64, 0x64, 0x2f, 0x52, 0x65, 0x61, 0x64, 0x56, 0x61,
  0x72, 0x69, 0x61, 0x62, 0x6c, 0x65, 0x4f, 0x70, 0x00, 0x00, 0x00, 0x00,
  0x01, 0x00, 0x00, 0x00, 0x40, 0x00, 0x00, 0x00, 0x92, 0xff, 0xff, 0xff,
  0x00, 0x00, 0x00, 0x01, 0x14, 0x00, 0x00, 0x00, 0x30, 0x00, 0x00, 0x00,
  0x03, 0x00, 0x00, 0x00, 0x00, 0x00, 0x00, 0x09, 0x48, 0x00, 0x00, 0x00,
  0x7c, 0xff, 0xff, 0xff, 0x08, 0x00, 0x00, 0x00, 0x10, 0x00, 0x00, 0x00,
  0x01, 0x00, 0x00, 0x00, 0x00, 0x00, 0x00, 0x00, 0x00, 0x00, 0x00, 0x00,
  0x01, 0x00, 0x00, 0x00, 0x17, 0xf2, 0x2d, 0x3b, 0x1c, 0x00, 0x00, 0x00,
  0x73, 0x65, 0x71, 0x75, 0x65, 0x6e, 0x74, 0x69, 0x61, 0x6c, 0x5f, 0x36,
  0x2f, 0x64, 0x65, 0x6e, 0x73, 0x65, 0x5f, 0x32, 0x30, 0x2f, 0x4d, 0x61,
  0x74, 0x4d, 0x75, 0x6c, 0x00, 0x00, 0x00, 0x00, 0x02, 0x00, 0x00, 0x00,
  0x01, 0x00, 0x00, 0x00, 0x40, 0x00, 0x00, 0x00, 0x00, 0x00, 0x16, 0x00,
  0x1c, 0x00, 0x18, 0x00, 0x17, 0x00, 0x10, 0x00, 0x0c, 0x00, 0x08, 0x00,
  0x00, 0x00, 0x00, 0x00, 0x00, 0x00, 0x07, 0x00, 0x16, 0x00, 0x00, 0x00,
  0x00, 0x00, 0x00, 0x01, 0x20, 0x00, 0x00, 0x00, 0x40, 0x00, 0x00, 0x00,
  0x02, 0x00, 0x00, 0x00, 0x00, 0x00, 0x00, 0x02, 0x68, 0x00, 0x00, 0x00,
  0x0c, 0x00, 0x0c, 0x00, 0x00, 0x00, 0x00, 0x00, 0x08, 0x00, 0x04, 0x00,
  0x0c, 0x00, 0x00, 0x00, 0x08, 0x00, 0x00, 0x00, 0x14, 0x00, 0x00, 0x00,
  0x01, 0x00, 0x00, 0x00, 0x00, 0x00, 0x00, 0x00, 0x00, 0x00, 0x00, 0x00,
  0x00, 0x00, 0x00, 0x00, 0x01, 0x00, 0x00, 0x00, 0x6d, 0xb9, 0xb9, 0x36,
  0x2c, 0x00, 0x00, 0x00, 0x73, 0x65, 0x71, 0x75, 0x65, 0x6e, 0x74, 0x69,
  0x61, 0x6c, 0x5f, 0x36, 0x2f, 0x64, 0x65, 0x6e, 0x73, 0x65, 0x5f, 0x32,
  0x30, 0x2f, 0x42, 0x69, 0x61, 0x73, 0x41, 0x64, 0x64, 0x2f, 0x52, 0x65,
  0x61, 0x64, 0x56, 0x61, 0x72, 0x69, 0x61, 0x62, 0x6c, 0x65, 0x4f, 0x70,
  0x00, 0x00, 0x00, 0x00, 0x01, 0x00, 0x00, 0x00, 0x01, 0x00, 0x00, 0x00,
  0x00, 0x00, 0x16, 0x00, 0x1c, 0x00, 0x18, 0x00, 0x00, 0x00, 0x14, 0x00,
  0x10, 0x00, 0x0c, 0x00, 0x00, 0x00, 0x00, 0x00, 0x08, 0x00, 0x07, 0x00,
  0x16, 0x00, 0x00, 0x00, 0x00, 0x00, 0x00, 0x01, 0x14, 0x00, 0x00, 0x00,
  0x20, 0x00, 0x00, 0x00, 0x20, 0x00, 0x00, 0x00, 0x01, 0x00, 0x00, 0x00,
  0x40, 0x00, 0x00, 0x00, 0x02, 0x00, 0x00, 0x00, 0xff, 0xff, 0xff, 0xff,
  0x01, 0x00, 0x00, 0x00, 0x04, 0x00, 0x04, 0x00, 0x04, 0x00, 0x00, 0x00,
  0x20, 0x00, 0x00, 0x00, 0x73, 0x65, 0x72, 0x76, 0x69, 0x6e, 0x67, 0x5f,
  0x64, 0x65, 0x66, 0x61, 0x75, 0x6c, 0x74, 0x5f, 0x64, 0x65, 0x6e, 0x73,
  0x65, 0x5f, 0x31, 0x38, 0x5f, 0x69, 0x6e, 0x70, 0x75, 0x74, 0x3a, 0x30,
  0x00, 0x00, 0x00, 0x00, 0x02, 0x00, 0x00, 0x00, 0x01, 0x00, 0x00, 0x00,
  0x01, 0x00, 0x00, 0x00, 0x03, 0x00, 0x00, 0x00, 0x44, 0x00, 0x00, 0x00,
  0x24, 0x00, 0x00, 0x00, 0x04, 0x00, 0x00, 0x00, 0xf0, 0xff, 0xff, 0xff,
  0x06, 0x00, 0x00, 0x00, 0x02, 0x00, 0x00, 0x00, 0x00, 0x00, 0x00, 0x06,
  0x0c, 0x00, 0x10, 0x00, 0x0f, 0x00, 0x00, 0x00, 0x08, 0x00, 0x04, 0x00,
  0x0c, 0x00, 0x00, 0x00, 0x09, 0x00, 0x00, 0x00, 0x04, 0x00, 0x00, 0x00,
  0x00, 0x00, 0x00, 0x09, 0x0c, 0x00, 0x0c, 0x00, 0x0b, 0x00, 0x00, 0x00,
  0x00, 0x00, 0x04, 0x00, 0x0c, 0x00, 0x00, 0x00, 0x72, 0x00, 0x00, 0x00,
  0x00, 0x00, 0x00, 0x72
};
unsigned int converted_model_tflite_len = 7408;
